// Auto-generated TensorFlow Lite model
#pragma once

const unsigned char model_data[] = {
0x1c, 0x00, 0x00, 0x00, 0x54, 0x46, 0x4c, 0x33, 0x14, 0x00, 0x20, 0x00, 
0x1c, 0x00, 0x18, 0x00, 0x14, 0x00, 0x10, 0x00, 0x0c, 0x00, 0x00, 0x00, 
0x08, 0x00, 0x04, 0x00, 0x14, 0x00, 0x00, 0x00, 0x1c, 0x00, 0x00, 0x00, 
0x98, 0x00, 0x00, 0x00, 0xf0, 0x00, 0x00, 0x00, 0xfc, 0x09, 0x00, 0x00, 
0x0c, 0x0a, 0x00, 0x00, 0xd0, 0x0f, 0x00, 0x00, 0x03, 0x00, 0x00, 0x00, 
0x01, 0x00, 0x00, 0x00, 0x10, 0x00, 0x00, 0x00, 0x00, 0x00, 0x0a, 0x00, 
0x10, 0x00, 0x0c, 0x00, 0x08, 0x00, 0x04, 0x00, 0x0a, 0x00, 0x00, 0x00, 
0x0c, 0x00, 0x00, 0x00, 0x1c, 0x00, 0x00, 0x00, 0x3c, 0x00, 0x00, 0x00, 
0x0f, 0x00, 0x00, 0x00, 0x73, 0x65, 0x72, 0x76, 0x69, 0x6e, 0x67, 0x5f, 
0x64, 0x65, 0x66, 0x61, 0x75, 0x6c, 0x74, 0x00, 0x01, 0x00, 0x00, 0x00, 
0x04, 0x00, 0x00, 0x00, 0x90, 0xff, 0xff, 0xff, 0x0a, 0x00, 0x00, 0x00, 
0x04, 0x00, 0x00, 0x00, 0x08, 0x00, 0x00, 0x00, 0x6f, 0x75, 0x74, 0x70, 
0x75, 0x74, 0x5f, 0x30, 0x00, 0x00, 0x00, 0x00, 0x01, 0x00, 0x00, 0x00, 
0x04, 0x00, 0x00, 0x00, 0xea, 0xf5, 0xff, 0xff, 0x04, 0x00, 0x00, 0x00, 
0x0c, 0x00, 0x00, 0x00, 0x6b, 0x65, 0x72, 0x61, 0x73, 0x5f, 0x74, 0x65, 
0x6e, 0x73, 0x6f, 0x72, 0x00, 0x00, 0x00, 0x00, 0x02, 0x00, 0x00, 0x00, 
0x34, 0x00, 0x00, 0x00, 0x04, 0x00, 0x00, 0x00, 0xdc, 0xff, 0xff, 0xff, 
0x0d, 0x00, 0x00, 0x00, 0x04, 0x00, 0x00, 0x00, 0x13, 0x00, 0x00, 0x00, 
0x43, 0x4f, 0x4e, 0x56, 0x45, 0x52, 0x53, 0x49, 0x4f, 0x4e, 0x5f, 0x4d, 
0x45, 0x54, 0x41, 0x44, 0x41, 0x54, 0x41, 0x00, 0x08, 0x00, 0x0c, 0x00, 
0x08, 0x00, 0x04, 0x00, 0x08, 0x00, 0x00, 0x00, 0x0c, 0x00, 0x00, 0x00, 
0x04, 0x00, 0x00, 0x00, 0x13, 0x00, 0x00, 0x00, 0x6d, 0x69, 0x6e, 0x5f, 
0x72, 0x75, 0x6e, 0x74, 0x69, 0x6d, 0x65, 0x5f, 0x76, 0x65, 0x72, 0x73, 
0x69, 0x6f, 0x6e, 0x00, 0x0e, 0x00, 0x00, 0x00, 0x08, 0x09, 0x00, 0x00, 
0x00, 0x09, 0x00, 0x00, 0x60, 0x08, 0x00, 0x00, 0xd0, 0x03, 0x00, 0x00, 
0xb4, 0x03, 0x00, 0x00, 0x74, 0x03, 0x00, 0x00, 0x04, 0x03, 0x00, 0x00, 
0xb4, 0x00, 0x00, 0x00, 0xac, 0x00, 0x00, 0x00, 0xa4, 0x00, 0x00, 0x00, 
0x9c, 0x00, 0x00, 0x00, 0x94, 0x00, 0x00, 0x00, 0x74, 0x00, 0x00, 0x00, 
0x04, 0x00, 0x00, 0x00, 0x9e, 0xf6, 0xff, 0xff, 0x04, 0x00, 0x00, 0x00, 
0x60, 0x00, 0x00, 0x00, 0x0c, 0x00, 0x00, 0x00, 0x08, 0x00, 0x0e, 0x00, 
0x08, 0x00, 0x04, 0x00, 0x08, 0x00, 0x00, 0x00, 0x10, 0x00, 0x00, 0x00, 
0x28, 0x00, 0x00, 0x00, 0x00, 0x00, 0x06, 0x00, 0x08, 0x00, 0x04, 0x00, 
0x06, 0x00, 0x00, 0x00, 0x04, 0x00, 0x00, 0x00, 0x01, 0x00, 0x00, 0x00, 
0xea, 0x03, 0x00, 0x00, 0x0c, 0x00, 0x18, 0x00, 0x14, 0x00, 0x10, 0x00, 
0x0c, 0x00, 0x04, 0x00, 0x0c, 0x00, 0x00, 0x00, 0xa7, 0xf1, 0x05, 0xba, 
0x8d, 0x1f, 0xbb, 0xf6, 0x02, 0x00, 0x00, 0x00, 0x02, 0x00, 0x00, 0x00, 
0x04, 0x00, 0x00, 0x00, 0x06, 0x00, 0x00, 0x00, 0x32, 0x2e, 0x31, 0x39, 
0x2e, 0x30, 0x00, 0x00, 0x0a, 0xf7, 0xff, 0xff, 0x04, 0x00, 0x00, 0x00, 
0x10, 0x00, 0x00, 0x00, 0x31, 0x2e, 0x35, 0x2e, 0x30, 0x00, 0x00, 0x00, 
0x00, 0x00, 0x00, 0x00, 0x00, 0x00, 0x00, 0x00, 0x10, 0xf2, 0xff, 0xff, 
0x14, 0xf2, 0xff, 0xff, 0x18, 0xf2, 0xff, 0xff, 0x1c, 0xf2, 0xff, 0xff, 
0x36, 0xf7, 0xff, 0xff, 0x04, 0x00, 0x00, 0x00, 0x40, 0x02, 0x00, 0x00, 
0x1b, 0x19, 0x2d, 0x3f, 0x94, 0xf8, 0x3d, 0x3e, 0x45, 0xe5, 0x93, 0x3e, 
0x05, 0x9b, 0x0a, 0xbe, 0x98, 0x72, 0x16, 0x3e, 0xe2, 0x93, 0x03, 0xbe, 
0x00, 0x2c, 0x2d, 0x3f, 0x79, 0x99, 0x9c, 0x3e, 0x1a, 0x7b, 0x64, 0xbe, 
0x09, 0xc9, 0x3d, 0x3e, 0xa3, 0x57, 0x80, 0xbe, 0x98, 0x67, 0xbc, 0x3e, 
0x26, 0x6a, 0xbc, 0x3e, 0x9b, 0xc3, 0xaf, 0xbe, 0xdf, 0xa7, 0xa6, 0xbd, 
0xcc, 0x2a, 0x37, 0x3e, 0x20, 0x12, 0x5a, 0xbe, 0xc3, 0x60, 0x54, 0xbe, 
0xee, 0x50, 0xb1, 0xbd, 0xad, 0xc2, 0xe8, 0xbe, 0x03, 0x6e, 0x6e, 0x3d, 
0xd3, 0x3d, 0xfb, 0xbe, 0xaa, 0x75, 0xdc, 0x3e, 0x83, 0x31, 0x61, 0x3d, 
0xa7, 0x81, 0x69, 0xbf, 0xe6, 0xcc, 0x81, 0x3e, 0x72, 0xb9, 0xe6, 0xbc, 
0xc0, 0xb4, 0x1a, 0x3e, 0xb6, 0x2e, 0x98, 0x3e, 0x6f, 0xa9, 0x63, 0xbe, 
0x2a, 0x58, 0x21, 0x3e, 0x27, 0x8c, 0xab, 0x3e, 0x45, 0xca, 0xfa, 0x3e, 
0xaa, 0x30, 0x27, 0xbe, 0x40, 0x54, 0xdb, 0x3e, 0x20, 0xfc, 0x14, 0x3e, 
0x82, 0xea, 0xf5, 0xbc, 0x78, 0x25, 0x93, 0x3d, 0xec, 0xa0, 0x0f, 0xbd, 
0x0d, 0x61, 0x84, 0x3e, 0x12, 0x6d, 0xfe, 0x3d, 0x77, 0xd3, 0x42, 0xbd, 
0x6a, 0x2b, 0x20, 0x3f, 0x7b, 0x61, 0x18, 0xbf, 0x74, 0x6c, 0x2d, 0xbe, 
0x17, 0x75, 0x13, 0xbf, 0xa1, 0xa8, 0xb5, 0xbd, 0xcb, 0xf5, 0x54, 0x3e, 
0x73, 0x7f, 0xb7, 0x3d, 0x29, 0x93, 0xb5, 0x3d, 0xed, 0x84, 0xa2, 0xbd, 
0x8f, 0x2a, 0x6b, 0x3e, 0x2c, 0x8a, 0x86, 0x3e, 0x2e, 0x3c, 0x5d, 0xbe, 
0x19, 0xec, 0x3e, 0xbe, 0x32, 0xff, 0x05, 0x3f, 0x92, 0xff, 0x10, 0x3e, 
0x0f, 0x21, 0x15, 0x3e, 0x03, 0x9a, 0xe7, 0x3e, 0x10, 0x67, 0xea, 0x3e, 
0xc9, 0x24, 0x24, 0x3f, 0x11, 0xce, 0x58, 0xbe, 0xce, 0xb6, 0x0d, 0x3f, 
0x54, 0xe3, 0xc6, 0x3e, 0xf6, 0x44, 0xb9, 0x3e, 0xef, 0x0d, 0xa7, 0xbe, 
0x5f, 0x4f, 0x8e, 0x3d, 0x53, 0xa2, 0x4f, 0xbf, 0x7e, 0xee, 0x96, 0xbe, 
0x0f, 0x84, 0xaf, 0xbe, 0xf5, 0x76, 0x0d, 0x3f, 0x3e, 0xa3, 0xf2, 0x3e, 
0xfb, 0x3c, 0x5e, 0xbf, 0xf2, 0x63, 0xb6, 0xbe, 0x0d, 0x21, 0x97, 0x3e, 
0x4e, 0x7a, 0x15, 0xbf, 0xa8, 0x3d, 0x3a, 0xbf, 0x5f, 0x94, 0x67, 0x3c, 
0x87, 0xbf, 0x05, 0x3f, 0xc5, 0x28, 0x18, 0xbd, 0xe4, 0x93, 0x51, 0xbe, 
0x76, 0xfa, 0x32, 0x3e, 0x81, 0x59, 0x55, 0xbe, 0x6c, 0x03, 0x6e, 0x3e, 
0xa2, 0xcb, 0x47, 0x3d, 0x88, 0xb3, 0x38, 0xbf, 0xc4, 0xfb, 0x90, 0xbd, 
0x1d, 0x77, 0x7a, 0xbd, 0x7d, 0xdf, 0x51, 0x3e, 0x67, 0x23, 0xd7, 0xbd, 
0x04, 0xd1, 0x64, 0x3e, 0x9e, 0xb3, 0x17, 0xbf, 0xae, 0x4b, 0xd1, 0xbe, 
0x9b, 0x78, 0xce, 0x3d, 0x77, 0x84, 0xba, 0x3e, 0x12, 0xd6, 0x33, 0xbe, 
0x54, 0x7e, 0x21, 0x3f, 0x9d, 0xbb, 0x5b, 0xbe, 0x94, 0x39, 0xe6, 0x3e, 
0xfd, 0x88, 0x40, 0x3e, 0x2e, 0x27, 0x4d, 0x3e, 0xd1, 0x58, 0xb6, 0xbe, 
0x0e, 0xd2, 0x4f, 0x3e, 0x63, 0x1f, 0xa0, 0x3d, 0xf4, 0xaa, 0xec, 0xbc, 
0x41, 0x72, 0x56, 0x3c, 0x02, 0x33, 0xbe, 0x3e, 0x54, 0x4b, 0x92, 0x3e, 
0xd3, 0x83, 0x3f, 0xbe, 0x47, 0x8a, 0xb0, 0xbe, 0x84, 0xa1, 0x07, 0xbf, 
0x23, 0x5c, 0x62, 0x3e, 0x22, 0x29, 0x9c, 0xbe, 0x08, 0xf9, 0xcb, 0xbd, 
0x4e, 0xe5, 0x6a, 0xbf, 0xb6, 0x10, 0x53, 0xbe, 0x9b, 0xfe, 0x90, 0xbe, 
0x1e, 0x7a, 0x65, 0x3e, 0xa5, 0x48, 0x49, 0xbf, 0x0e, 0xc4, 0x3c, 0xbf, 
0x95, 0x8a, 0xac, 0x3e, 0x5b, 0x8e, 0xdd, 0xbe, 0x03, 0x80, 0x06, 0xbf, 
0x9d, 0x97, 0x7a, 0xbe, 0x14, 0x3c, 0x83, 0x3e, 0xbe, 0x50, 0x33, 0xbe, 
0x9f, 0xbe, 0xbd, 0xbe, 0x99, 0xd8, 0x58, 0xbe, 0xb1, 0xf3, 0x09, 0x3f, 
0x06, 0x22, 0xc2, 0xbd, 0x72, 0x38, 0xef, 0x3e, 0x93, 0xd1, 0xc6, 0x3e, 
0xb2, 0x0a, 0xd9, 0x3e, 0xe3, 0x2a, 0xdf, 0xbe, 0xb5, 0x32, 0x18, 0xbf, 
0x5f, 0xcb, 0x56, 0x3e, 0x3b, 0xf5, 0x6e, 0xbd, 0x68, 0x5a, 0xdc, 0xbc, 
0xd0, 0xf3, 0x5d, 0xbe, 0x6c, 0x2c, 0xc8, 0xbc, 0xc3, 0xfb, 0x16, 0x3f, 
0xd4, 0x9c, 0x70, 0x3b, 0x9a, 0x69, 0x0f, 0xbf, 0xd2, 0x52, 0x8c, 0xbe, 
0x82, 0xf9, 0xff, 0xff, 0x04, 0x00, 0x00, 0x00, 0x60, 0x00, 0x00, 0x00, 
0x8a, 0x08, 0x42, 0x3e, 0x1a, 0x59, 0x77, 0x3e, 0x3f, 0x03, 0x0e, 0xbe, 
0x31, 0xb1, 0x80, 0x3d, 0xd2, 0xff, 0xb1, 0x3e, 0x6d, 0x0f, 0x8c, 0x3e, 
0xb4, 0xf4, 0x65, 0x3d, 0x84, 0x15, 0x91, 0x3e, 0xf3, 0xf6, 0x0c, 0xbe, 
0xf7, 0x04, 0x1c, 0x3e, 0xce, 0xae, 0x59, 0x3e, 0xc8, 0x06, 0x64, 0xbd, 
0x77, 0x8c, 0xc2, 0x3e, 0x83, 0x42, 0xb5, 0xbc, 0x85, 0xfe, 0x66, 0x3b, 
0xfa, 0xf8, 0x6b, 0xbc, 0xcd, 0x5b, 0x8f, 0x3e, 0x16, 0x4d, 0xa8, 0x3e, 
0x23, 0x0d, 0xe8, 0x3d, 0x57, 0xa2, 0xb3, 0x3e, 0x13, 0xbd, 0xe1, 0x3c, 
0xc2, 0x02, 0xa9, 0xbd, 0x2b, 0x9d, 0x89, 0x3d, 0x05, 0x48, 0xa5, 0x3e, 
0xee, 0xf9, 0xff, 0xff, 0x04, 0x00, 0x00, 0x00, 0x30, 0x00, 0x00, 0x00, 
0x3f, 0x86, 0xc9, 0xbb, 0x4a, 0x5f, 0xd0, 0x3e, 0x39, 0xca, 0xe2, 0xba, 
0x80, 0xde, 0x3c, 0x3e, 0x17, 0x21, 0x68, 0xbc, 0xa7, 0xde, 0x3c, 0xbd, 
0xfb, 0xd6, 0x0c, 0x3e, 0x00, 0x00, 0x00, 0x00, 0x51, 0x43, 0x63, 0x3e, 
0xfd, 0xea, 0x25, 0x3e, 0x3d, 0xa1, 0xc1, 0xbd, 0x5d, 0x40, 0x3f, 0xbd, 
0x2a, 0xfa, 0xff, 0xff, 0x04, 0x00, 0x00, 0x00, 0x0c, 0x00, 0x00, 0x00, 
0xfb, 0xec, 0x19, 0x3b, 0xcf, 0xf5, 0x0a, 0x3e, 0x73, 0xc3, 0x4e, 0xbe, 
0x42, 0xfa, 0xff, 0xff, 0x04, 0x00, 0x00, 0x00, 0x80, 0x04, 0x00, 0x00, 
0xb4, 0x21, 0x97, 0xba, 0x2c, 0xa1, 0xaa, 0x3e, 0x5f, 0xfc, 0x37, 0x3e, 
0xb6, 0xb2, 0x99, 0x3e, 0x4f, 0xff, 0x39, 0xbe, 0xb3, 0xd3, 0x61, 0xbe, 
0x26, 0xff, 0x63, 0xbe, 0xd1, 0x19, 0x8a, 0x3e, 0x47, 0xdf, 0x3e, 0x3e, 
0x98, 0xce, 0x45, 0xbe, 0x07, 0x9e, 0x51, 0xbe, 0xfb, 0x8b, 0x44, 0x3f, 
0x7f, 0xfb, 0x06, 0x3e, 0x4f, 0xc7, 0xcc, 0xbe, 0x64, 0x01, 0x26, 0x3e, 
0x48, 0x15, 0xb8, 0x3e, 0xcb, 0xa3, 0x29, 0x3e, 0x1c, 0x20, 0xa5, 0x3e, 
0xd0, 0x3c, 0x8a, 0x3b, 0xb3, 0x24, 0x80, 0xbd, 0x58, 0x10, 0x8b, 0x3c, 
0x83, 0x2f, 0x83, 0x3c, 0xd8, 0x47, 0x1c, 0x3f, 0xc5, 0x28, 0xab, 0xbe, 
0x12, 0x10, 0x96, 0xbe, 0x9b, 0x92, 0x82, 0xbd, 0x3e, 0xfe, 0x3e, 0xbe, 
0x7a, 0x35, 0x5c, 0x3d, 0x6f, 0x0b, 0x46, 0x3f, 0x9d, 0x14, 0x80, 0x3e, 
0x5a, 0x5b, 0x64, 0xbe, 0x68, 0x09, 0xda, 0x3e, 0xce, 0x74, 0xbd, 0x3d, 
0x89, 0x51, 0xd3, 0x3e, 0xf9, 0x64, 0xb8, 0xbd, 0xf0, 0x71, 0x9b, 0xbd, 
0x1e, 0x45, 0x69, 0x3f, 0x7f, 0xe9, 0xb6, 0xbd, 0x6e, 0xf3, 0xe0, 0x3e, 
0x86, 0x91, 0x11, 0x3e, 0x55, 0xee, 0x0f, 0xbf, 0xc8, 0x2a, 0x04, 0x3d, 
0x2a, 0x2e, 0x00, 0x3f, 0x3e, 0x8b, 0x5e, 0x3f, 0x8c, 0xa8, 0xca, 0x3e, 
0x62, 0x67, 0x3f, 0xbc, 0xf9, 0x89, 0x6e, 0x3d, 0xfd, 0x00, 0xf9, 0x3e, 
0x4a, 0x29, 0xd4, 0xbe, 0xd3, 0x30, 0x00, 0xbe, 0x47, 0x9f, 0xad, 0xbe, 
0xd7, 0xea, 0xaa, 0x3d, 0x4b, 0xd8, 0xf1, 0xbd, 0xc4, 0xf2, 0x13, 0x3d, 
0x9b, 0x64, 0x76, 0xbe, 0x14, 0x58, 0x1c, 0xbe, 0x25, 0x13, 0x6b, 0xbd, 
0x27, 0xb8, 0x06, 0x3f, 0x1c, 0xdc, 0x0a, 0xbe, 0x61, 0xcb, 0x8a, 0x3e, 
0x55, 0x33, 0x66, 0xbe, 0x64, 0xe6, 0x16, 0x3d, 0x49, 0x15, 0xab, 0x3e, 
0x1b, 0x85, 0x90, 0xbd, 0x8a, 0x7a, 0xaa, 0xbc, 0xa8, 0x23, 0x74, 0x3e, 
0x5f, 0x42, 0x1d, 0x3e, 0x73, 0x2b, 0x5c, 0xbe, 0x62, 0x70, 0x38, 0xbd, 
0x4a, 0x07, 0x05, 0x3f, 0xec, 0x04, 0x54, 0xbe, 0x5e, 0x97, 0xa5, 0x3e, 
0x8f, 0x8e, 0x3d, 0x3f, 0xf0, 0x38, 0x1e, 0x3f, 0x58, 0xe8, 0x79, 0x3e, 
0x56, 0xea, 0xa9, 0x3e, 0x24, 0x15, 0x7a, 0xbd, 0xc7, 0xb4, 0x0b, 0x3e, 
0x71, 0xc7, 0xb5, 0x3e, 0x90, 0xca, 0x47, 0xbc, 0x3a, 0x01, 0x2f, 0xbd, 
0x3e, 0xc5, 0x16, 0xbe, 0x69, 0x32, 0x66, 0x3d, 0x6a, 0xeb, 0xcb, 0xbe, 
0x6d, 0x8e, 0xd4, 0xbe, 0xf7, 0x29, 0x43, 0xbd, 0x43, 0x2a, 0x30, 0x3e, 
0x7b, 0x8a, 0x12, 0xbe, 0x75, 0xce, 0x27, 0x3f, 0x61, 0x6b, 0xa9, 0x3e, 
0xce, 0x12, 0xbd, 0xbe, 0x97, 0xb3, 0xf6, 0x3d, 0xd9, 0x78, 0x18, 0xbd, 
0x12, 0xc4, 0x72, 0xbe, 0xf5, 0xcc, 0x89, 0x3e, 0xe0, 0x47, 0x41, 0x3e, 
0xc7, 0x05, 0x84, 0xbe, 0x99, 0x86, 0x99, 0xbe, 0x37, 0x13, 0xea, 0x3e, 
0x03, 0xd8, 0x99, 0x3e, 0x4a, 0xea, 0x4f, 0xbe, 0x74, 0xae, 0x84, 0x3d, 
0x80, 0x15, 0x91, 0x3e, 0x14, 0xc1, 0x23, 0x3f, 0x7b, 0x95, 0x97, 0xbe, 
0x66, 0x94, 0x4c, 0xbc, 0xa2, 0xe2, 0x08, 0xbf, 0x88, 0xcc, 0x58, 0x3f, 
0x80, 0x8a, 0xfb, 0xbb, 0x03, 0x99, 0xdf, 0xbd, 0xba, 0x75, 0xc1, 0x3e, 
0xbb, 0x29, 0xd4, 0x3e, 0x2a, 0x7d, 0x91, 0xbe, 0xbd, 0xeb, 0x7b, 0x3c, 
0x20, 0x84, 0x62, 0x3e, 0xa7, 0xb4, 0x4a, 0xbd, 0x88, 0x3f, 0xfb, 0x3e, 
0x14, 0x6b, 0x7c, 0xbe, 0xb7, 0x37, 0xca, 0x3e, 0xda, 0x94, 0x29, 0xbf, 
0xfe, 0x1f, 0x26, 0x3f, 0x11, 0x02, 0x2f, 0x3f, 0xae, 0x7a, 0xe9, 0xbb, 
0x03, 0x8c, 0x07, 0xbe, 0x41, 0xbe, 0x26, 0x3d, 0xc2, 0x01, 0xd0, 0x3e, 
0xe2, 0x41, 0x92, 0xbe, 0xe8, 0x4c, 0x0d, 0x3f, 0x1c, 0xe4, 0x06, 0xbe, 
0x29, 0x02, 0x7d, 0xbe, 0xdc, 0xee, 0x45, 0x3e, 0xdd, 0xa6, 0x8d, 0xbe, 
0xd2, 0x3f, 0x85, 0xbd, 0x35, 0x7a, 0xc7, 0x3e, 0xd2, 0x1f, 0xe8, 0x3d, 
0x45, 0xee, 0xea, 0xbd, 0xf6, 0x5c, 0x21, 0x3f, 0x43, 0x58, 0xca, 0x3e, 
0xec, 0x4c, 0xa1, 0xbe, 0x21, 0xab, 0x55, 0x3e, 0xea, 0x3b, 0x5f, 0xbe, 
0x3d, 0xdc, 0x9c, 0xbe, 0x2d, 0x3b, 0x47, 0xbe, 0xe2, 0xa2, 0x84, 0xbe, 
0x2b, 0x90, 0x91, 0xbe, 0xd2, 0x7a, 0xf9, 0xbd, 0x17, 0xb4, 0x37, 0xbf, 
0x17, 0xfb, 0xc9, 0xbd, 0xf9, 0x68, 0x9e, 0x3e, 0x17, 0x72, 0x41, 0x3e, 
0xb9, 0x4e, 0xf7, 0x3d, 0x92, 0xaa, 0x5a, 0xbe, 0x36, 0x23, 0x39, 0x3e, 
0x45, 0x83, 0xb8, 0x39, 0x72, 0x06, 0x09, 0xbe, 0x0c, 0x68, 0xfd, 0xbe, 
0x69, 0x29, 0x86, 0x3e, 0x1c, 0xc8, 0xc0, 0x3e, 0x38, 0xdf, 0xef, 0xbc, 
0x17, 0xca, 0x1a, 0xbf, 0x01, 0xc8, 0x10, 0xbe, 0x3a, 0x4a, 0x1d, 0xbe, 
0x25, 0x98, 0x7f, 0xbe, 0xf4, 0x38, 0xfe, 0x3e, 0x88, 0x51, 0x07, 0xbe, 
0x85, 0xa2, 0xec, 0x3e, 0x45, 0xc8, 0xc8, 0xbe, 0x3f, 0xe6, 0x38, 0x3f, 
0x3a, 0x15, 0x85, 0x3e, 0x5c, 0x69, 0xc2, 0xbe, 0x3d, 0x18, 0x5b, 0xbe, 
0x9a, 0x23, 0xc7, 0x3e, 0xa3, 0xeb, 0x84, 0xbe, 0x89, 0x6b, 0x92, 0xbe, 
0xa8, 0x4b, 0xc9, 0x3d, 0xc7, 0x0d, 0x65, 0xbe, 0xa8, 0x3f, 0x26, 0xbe, 
0xc3, 0xce, 0x81, 0xbe, 0x50, 0x76, 0x37, 0xbe, 0x75, 0x62, 0x79, 0xbe, 
0xa0, 0xb5, 0x80, 0x3d, 0xc2, 0x13, 0x2a, 0xbe, 0xc0, 0x66, 0x6d, 0xbe, 
0x40, 0xa1, 0x11, 0x3c, 0x20, 0x59, 0x00, 0x3e, 0x00, 0x6e, 0x39, 0x3d, 
0x7c, 0x2e, 0x8d, 0xbd, 0x12, 0x64, 0x8a, 0xbe, 0xc0, 0xf2, 0x53, 0xbe, 
0x7a, 0x04, 0x3c, 0xbe, 0x24, 0xbe, 0x14, 0x3e, 0x08, 0xb4, 0x80, 0x3d, 
0x4b, 0xa4, 0x43, 0xbe, 0x07, 0x1b, 0x1a, 0x3f, 0x06, 0x61, 0x9d, 0xbe, 
0x22, 0xca, 0x34, 0x3d, 0x01, 0x25, 0x2d, 0x3f, 0xd8, 0x6c, 0xcb, 0x3e, 
0x5d, 0x20, 0x17, 0xbe, 0x22, 0xa0, 0x06, 0xbc, 0x29, 0x62, 0xb3, 0x3e, 
0xe2, 0x69, 0x06, 0x3f, 0x08, 0x1c, 0x8a, 0x3e, 0x0e, 0xc0, 0x59, 0xbf, 
0x32, 0xca, 0x1b, 0x3f, 0x35, 0x17, 0x09, 0xbb, 0x1f, 0x2d, 0x01, 0xbf, 
0x69, 0x4d, 0x04, 0xbf, 0xc5, 0xc1, 0x3d, 0xbe, 0xe3, 0x46, 0x8c, 0x3d, 
0x75, 0xcd, 0x55, 0x3e, 0xc1, 0xf4, 0x9b, 0xbc, 0xdb, 0xd7, 0x07, 0xbf, 
0xf9, 0xe9, 0x6d, 0xbe, 0xcc, 0x78, 0x66, 0xbe, 0x46, 0xc2, 0x42, 0x3f, 
0x74, 0xb3, 0xad, 0x3e, 0x85, 0xa8, 0xcf, 0x3e, 0xaa, 0x5e, 0xa4, 0x3e, 
0x23, 0x83, 0x4d, 0x3d, 0x0d, 0x09, 0x0f, 0xbf, 0x81, 0xec, 0xe6, 0x3e, 
0xdc, 0x53, 0x9c, 0x3e, 0x55, 0xe1, 0x44, 0x3e, 0x0c, 0x9c, 0x23, 0xbe, 
0xb4, 0x32, 0x41, 0x3e, 0xe6, 0x7d, 0x63, 0x3e, 0xfd, 0x29, 0xcb, 0xbc, 
0x84, 0xf7, 0x52, 0xbe, 0xa3, 0xe1, 0xe3, 0x3d, 0x23, 0x76, 0xb8, 0xbe, 
0x8c, 0x76, 0xf0, 0x3c, 0x9e, 0xec, 0xea, 0x3e, 0x9b, 0xe5, 0x7d, 0x3e, 
0x33, 0xe5, 0xf6, 0xbc, 0x96, 0x1e, 0x81, 0xbe, 0x93, 0x55, 0x10, 0xbe, 
0x41, 0x0d, 0xd6, 0xbe, 0xd1, 0x7f, 0x0e, 0x3e, 0x36, 0xf6, 0xab, 0x3e, 
0xca, 0xd1, 0xa0, 0xbe, 0xd4, 0xc9, 0xdf, 0x3c, 0xf6, 0xc5, 0x92, 0xbe, 
0xf8, 0x0e, 0xa7, 0x3e, 0xd2, 0x1d, 0xb3, 0x3d, 0x9b, 0xee, 0xc7, 0xbe, 
0xdc, 0x1f, 0xa1, 0x3e, 0x02, 0x7a, 0xa0, 0x3e, 0x01, 0xfe, 0x8a, 0xbe, 
0x89, 0x7f, 0x86, 0x3e, 0x91, 0x9a, 0xdc, 0xbe, 0xdb, 0x72, 0x86, 0x3e, 
0xc4, 0x70, 0x8e, 0x3e, 0x86, 0xad, 0xb7, 0xbc, 0xf8, 0x0c, 0x7e, 0x3e, 
0xf4, 0x0b, 0x29, 0xbd, 0x2e, 0xca, 0xb7, 0xbe, 0xd1, 0x73, 0xfb, 0xbd, 
0xc7, 0x9c, 0xbf, 0xbe, 0xb8, 0xb7, 0xde, 0xbe, 0x4b, 0x7f, 0xed, 0xbe, 
0x0c, 0x6f, 0xfc, 0xbd, 0x61, 0x8b, 0x9e, 0xbe, 0xa0, 0xf1, 0x19, 0xbe, 
0x32, 0x5e, 0x4a, 0x3e, 0x09, 0x07, 0xa6, 0x3e, 0x80, 0xd3, 0x40, 0x3e, 
0x95, 0x14, 0xb0, 0xbe, 0xa7, 0xfa, 0x32, 0x3e, 0x5a, 0x8c, 0xb7, 0xbd, 
0x22, 0x74, 0xc5, 0xbe, 0xbc, 0xa3, 0xf2, 0xbd, 0xed, 0xae, 0x74, 0x3d, 
0x3a, 0xd9, 0x9d, 0xbe, 0x0b, 0x9b, 0x8a, 0xbe, 0x5f, 0x73, 0xb0, 0xbe, 
0x08, 0x3d, 0xda, 0x3d, 0x93, 0x1a, 0x85, 0xbe, 0x05, 0x8e, 0x33, 0x3d, 
0x97, 0x00, 0x5d, 0xbe, 0xd9, 0xd3, 0x2a, 0x3c, 0x41, 0x72, 0x37, 0xbd, 
0x0f, 0x6d, 0xb5, 0xbe, 0x58, 0x57, 0x44, 0xbe, 0x6b, 0x8c, 0x2d, 0xbe, 
0xbe, 0x0f, 0xa1, 0x3e, 0x48, 0x1b, 0x96, 0x3c, 0xb3, 0x18, 0x43, 0xbe, 
0xce, 0xfe, 0xff, 0xff, 0x04, 0x00, 0x00, 0x00, 0x90, 0x00, 0x00, 0x00, 
0x91, 0xdc, 0x59, 0x3f, 0x0c, 0xf3, 0x76, 0xbe, 0x78, 0x68, 0xe2, 0xbe, 
0x09, 0x00, 0x65, 0xbf, 0x67, 0x90, 0x79, 0x3f, 0xc7, 0x8a, 0x38, 0x3e, 
0xb7, 0xdd, 0x2d, 0xbf, 0x80, 0x1a, 0x49, 0xbc, 0x2e, 0xc3, 0x97, 0xbf, 
0x34, 0x3f, 0xf8, 0xbe, 0x61, 0x73, 0xc5, 0xbe, 0x47, 0xd8, 0x33, 0xbe, 
0x17, 0x7b, 0x33, 0xbf, 0xe8, 0xf9, 0x42, 0xbd, 0xf7, 0xbf, 0x41, 0x3f, 
0xf0, 0x0c, 0x04, 0xbf, 0xf7, 0xa5, 0x65, 0xbf, 0x9c, 0x65, 0xe5, 0xbd, 
0x1c, 0x84, 0x8a, 0x3f, 0xa6, 0xc2, 0xff, 0x3e, 0x2b, 0x1b, 0x03, 0x3e, 
0xbd, 0x05, 0xb9, 0xbe, 0x7d, 0x0f, 0x87, 0xbe, 0xe9, 0xf1, 0x65, 0xbe, 
0x5c, 0xf6, 0xb4, 0xbe, 0x49, 0x17, 0x7b, 0xbf, 0x37, 0x95, 0xe1, 0x3e, 
0x72, 0xf5, 0x90, 0x3f, 0x31, 0xb5, 0x25, 0xbe, 0x1a, 0x84, 0x08, 0x3f, 
0xd4, 0x26, 0xa3, 0xbd, 0x00, 0x3a, 0x30, 0x3b, 0xf2, 0xc7, 0xa9, 0xbe, 
0xa0, 0x0f, 0xc8, 0x3e, 0x0c, 0x34, 0x85, 0xbd, 0xb4, 0x24, 0x9c, 0x3e, 
0x54, 0xfa, 0xff, 0xff, 0x58, 0xfa, 0xff, 0xff, 0x0f, 0x00, 0x00, 0x00, 
0x4d, 0x4c, 0x49, 0x52, 0x20, 0x43, 0x6f, 0x6e, 0x76, 0x65, 0x72, 0x74, 
0x65, 0x64, 0x2e, 0x00, 0x01, 0x00, 0x00, 0x00, 0x14, 0x00, 0x00, 0x00, 
0x00, 0x00, 0x0e, 0x00, 0x18, 0x00, 0x14, 0x00, 0x10, 0x00, 0x0c, 0x00, 
0x08, 0x00, 0x04, 0x00, 0x0e, 0x00, 0x00, 0x00, 0x14, 0x00, 0x00, 0x00, 
0x1c, 0x00, 0x00, 0x00, 0x34, 0x01, 0x00, 0x00, 0x38, 0x01, 0x00, 0x00, 
0x3c, 0x01, 0x00, 0x00, 0x04, 0x00, 0x00, 0x00, 0x6d, 0x61, 0x69, 0x6e, 
0x00, 0x00, 0x00, 0x00, 0x04, 0x00, 0x00, 0x00, 0xdc, 0x00, 0x00, 0x00, 
0x94, 0x00, 0x00, 0x00, 0x50, 0x00, 0x00, 0x00, 0x14, 0x00, 0x00, 0x00, 
0x00, 0x00, 0x0e, 0x00, 0x1a, 0x00, 0x14, 0x00, 0x10, 0x00, 0x0c, 0x00, 
0x0b, 0x00, 0x04, 0x00, 0x0e, 0x00, 0x00, 0x00, 0x1c, 0x00, 0x00, 0x00, 
0x00, 0x00, 0x00, 0x09, 0x1c, 0x00, 0x00, 0x00, 0x20, 0x00, 0x00, 0x00, 
0x01, 0x00, 0x00, 0x00, 0x00, 0x00, 0x06, 0x00, 0x08, 0x00, 0x04, 0x00, 
0x06, 0x00, 0x00, 0x00, 0x00, 0x00, 0x80, 0x3f, 0x01, 0x00, 0x00, 0x00, 
0x0a, 0x00, 0x00, 0x00, 0x01, 0x00, 0x00, 0x00, 0x09, 0x00, 0x00, 0x00, 
0xce, 0xff, 0xff, 0xff, 0x10, 0x00, 0x00, 0x00, 0x00, 0x00, 0x00, 0x08, 
0x0c, 0x00, 0x00, 0x00, 0x10, 0x00, 0x00, 0x00, 0x1c, 0xfb, 0xff, 0xff, 
0x01, 0x00, 0x00, 0x00, 0x09, 0x00, 0x00, 0x00, 0x03, 0x00, 0x00, 0x00, 
0x08, 0x00, 0x00, 0x00, 0x01, 0x00, 0x00, 0x00, 0x03, 0x00, 0x00, 0x00, 
0x00, 0x00, 0x0e, 0x00, 0x14, 0x00, 0x00, 0x00, 0x10, 0x00, 0x0c, 0x00, 
0x0b, 0x00, 0x04, 0x00, 0x0e, 0x00, 0x00, 0x00, 0x10, 0x00, 0x00, 0x00, 
0x00, 0x00, 0x00, 0x08, 0x10, 0x00, 0x00, 0x00, 0x14, 0x00, 0x00, 0x00, 
0xba, 0xff, 0xff, 0xff, 0x00, 0x00, 0x00, 0x01, 0x01, 0x00, 0x00, 0x00, 
0x08, 0x00, 0x00, 0x00, 0x03, 0x00, 0x00, 0x00, 0x07, 0x00, 0x00, 0x00, 
0x02, 0x00, 0x00, 0x00, 0x04, 0x00, 0x00, 0x00, 0x00, 0x00, 0x0e, 0x00, 
0x16, 0x00, 0x00, 0x00, 0x10, 0x00, 0x0c, 0x00, 0x0b, 0x00, 0x04, 0x00, 
0x0e, 0x00, 0x00, 0x00, 0x18, 0x00, 0x00, 0x00, 0x00, 0x00, 0x00, 0x08, 
0x18, 0x00, 0x00, 0x00, 0x1c, 0x00, 0x00, 0x00, 0x00, 0x00, 0x06, 0x00, 
0x08, 0x00, 0x07, 0x00, 0x06, 0x00, 0x00, 0x00, 0x00, 0x00, 0x00, 0x01, 
0x01, 0x00, 0x00, 0x00, 0x07, 0x00, 0x00, 0x00, 0x03, 0x00, 0x00, 0x00, 
0x00, 0x00, 0x00, 0x00, 0x06, 0x00, 0x00, 0x00, 0x05, 0x00, 0x00, 0x00, 
0x01, 0x00, 0x00, 0x00, 0x0a, 0x00, 0x00, 0x00, 0x01, 0x00, 0x00, 0x00, 
0x00, 0x00, 0x00, 0x00, 0x0b, 0x00, 0x00, 0x00, 0xfc, 0x03, 0x00, 0x00, 
0xa4, 0x03, 0x00, 0x00, 0x4c, 0x03, 0x00, 0x00, 0x10, 0x03, 0x00, 0x00, 
0xb4, 0x02, 0x00, 0x00, 0x5c, 0x02, 0x00, 0x00, 0x10, 0x02, 0x00, 0x00, 
0x7c, 0x01, 0x00, 0x00, 0xe0, 0x00, 0x00, 0x00, 0x60, 0x00, 0x00, 0x00, 
0x04, 0x00, 0x00, 0x00, 0x46, 0xfc, 0xff, 0xff, 0x00, 0x00, 0x00, 0x01, 
0x14, 0x00, 0x00, 0x00, 0x1c, 0x00, 0x00, 0x00, 0x1c, 0x00, 0x00, 0x00, 
0x0b, 0x00, 0x00, 0x00, 0x34, 0x00, 0x00, 0x00, 0x02, 0x00, 0x00, 0x00, 
0xff, 0xff, 0xff, 0xff, 0x03, 0x00, 0x00, 0x00, 0x30, 0xfc, 0xff, 0xff, 
0x1b, 0x00, 0x00, 0x00, 0x53, 0x74, 0x61, 0x74, 0x65, 0x66, 0x75, 0x6c, 
0x50, 0x61, 0x72, 0x74, 0x69, 0x74, 0x69, 0x6f, 0x6e, 0x65, 0x64, 0x43, 
0x61, 0x6c, 0x6c, 0x5f, 0x31, 0x3a, 0x30, 0x00, 0x02, 0x00, 0x00, 0x00, 
0x01, 0x00, 0x00, 0x00, 0x03, 0x00, 0x00, 0x00, 0x9e, 0xfc, 0xff, 0xff, 
0x00, 0x00, 0x00, 0x01, 0x14, 0x00, 0x00, 0x00, 0x1c, 0x00, 0x00, 0x00, 
0x1c, 0x00, 0x00, 0x00, 0x0a, 0x00, 0x00, 0x00, 0x58, 0x00, 0x00, 0x00, 
0x02, 0x00, 0x00, 0x00, 0xff, 0xff, 0xff, 0xff, 0x03, 0x00, 0x00, 0x00, 
0x88, 0xfc, 0xff, 0xff, 0x3c, 0x00, 0x00, 0x00, 0x73, 0x65, 0x71, 0x75, 
0x65, 0x6e, 0x74, 0x69, 0x61, 0x6c, 0x5f, 0x31, 0x2f, 0x64, 0x65, 0x6e, 
0x73, 0x65, 0x5f, 0x32, 0x5f, 0x31, 0x2f, 0x4d, 0x61, 0x74, 0x4d, 0x75, 
0x6c, 0x3b, 0x73, 0x65, 0x71, 0x75, 0x65, 0x6e, 0x74, 0x69, 0x61, 0x6c, 
0x5f, 0x31, 0x2f, 0x64, 0x65, 0x6e, 0x73, 0x65, 0x5f, 0x32, 0x5f, 0x31, 
0x2f, 0x42, 0x69, 0x61, 0x73, 0x41, 0x64, 0x64, 0x00, 0x00, 0x00, 0x00, 
0x02, 0x00, 0x00, 0x00, 0x01, 0x00, 0x00, 0x00, 0x03, 0x00, 0x00, 0x00, 
0x1a, 0xfd, 0xff, 0xff, 0x00, 0x00, 0x00, 0x01, 0x14, 0x00, 0x00, 0x00, 
0x1c, 0x00, 0x00, 0x00, 0x1c, 0x00, 0x00, 0x00, 0x09, 0x00, 0x00, 0x00, 
0x74, 0x00, 0x00, 0x00, 0x02, 0x00, 0x00, 0x00, 0xff, 0xff, 0xff, 0xff, 
0x0c, 0x00, 0x00, 0x00, 0x04, 0xfd, 0xff, 0xff, 0x58, 0x00, 0x00, 0x00, 
0x73, 0x65, 0x71, 0x75, 0x65, 0x6e, 0x74, 0x69, 0x61, 0x6c, 0x5f, 0x31, 
0x2f, 0x64, 0x65, 0x6e, 0x73, 0x65, 0x5f, 0x31, 0x5f, 0x32, 0x2f, 0x4d, 
0x61, 0x74, 0x4d, 0x75, 0x6c, 0x3b, 0x73, 0x65, 0x71, 0x75, 0x65, 0x6e, 
0x74, 0x69, 0x61, 0x6c, 0x5f, 0x31, 0x2f, 0x64, 0x65, 0x6e, 0x73, 0x65, 
0x5f, 0x31, 0x5f, 0x32, 0x2f, 0x52, 0x65, 0x6c, 0x75, 0x3b, 0x73, 0x65, 
0x71, 0x75, 0x65, 0x6e, 0x74, 0x69, 0x61, 0x6c, 0x5f, 0x31, 0x2f, 0x64, 
0x65, 0x6e, 0x73, 0x65, 0x5f, 0x31, 0x5f, 0x32, 0x2f, 0x42, 0x69, 0x61, 
0x73, 0x41, 0x64, 0x64, 0x00, 0x00, 0x00, 0x00, 0x02, 0x00, 0x00, 0x00, 
0x01, 0x00, 0x00, 0x00, 0x0c, 0x00, 0x00, 0x00, 0xb2, 0xfd, 0xff, 0xff, 
0x00, 0x00, 0x00, 0x01, 0x14, 0x00, 0x00, 0x00, 0x1c, 0x00, 0x00, 0x00, 
0x1c, 0x00, 0x00, 0x00, 0x08, 0x00, 0x00, 0x00, 0x6c, 0x00, 0x00, 0x00, 
0x02, 0x00, 0x00, 0x00, 0xff, 0xff, 0xff, 0xff, 0x18, 0x00, 0x00, 0x00, 
0x9c, 0xfd, 0xff, 0xff, 0x52, 0x00, 0x00, 0x00, 0x73, 0x65, 0x71, 0x75, 
0x65, 0x6e, 0x74, 0x69, 0x61, 0x6c, 0x5f, 0x31, 0x2f, 0x64, 0x65, 0x6e, 
0x73, 0x65, 0x5f, 0x31, 0x2f, 0x4d, 0x61, 0x74, 0x4d, 0x75, 0x6c, 0x3b, 
0x73, 0x65, 0x71, 0x75, 0x65, 0x6e, 0x74, 0x69, 0x61, 0x6c, 0x5f, 0x31, 
0x2f, 0x64, 0x65, 0x6e, 0x73, 0x65, 0x5f, 0x31, 0x2f, 0x52, 0x65, 0x6c, 
0x75, 0x3b, 0x73, 0x65, 0x71, 0x75, 0x65, 0x6e, 0x74, 0x69, 0x61, 0x6c, 
0x5f, 0x31, 0x2f, 0x64, 0x65, 0x6e, 0x73, 0x65, 0x5f, 0x31, 0x2f, 0x42, 
0x69, 0x61, 0x73, 0x41, 0x64, 0x64, 0x00, 0x00, 0x02, 0x00, 0x00, 0x00, 
0x01, 0x00, 0x00, 0x00, 0x18, 0x00, 0x00, 0x00, 0x96, 0xfe, 0xff, 0xff, 
0x00, 0x00, 0x00, 0x01, 0x10, 0x00, 0x00, 0x00, 0x10, 0x00, 0x00, 0x00, 
0x07, 0x00, 0x00, 0x00, 0x28, 0x00, 0x00, 0x00, 0x1c, 0xfe, 0xff, 0xff, 
0x1b, 0x00, 0x00, 0x00, 0x73, 0x65, 0x71, 0x75, 0x65, 0x6e, 0x74, 0x69, 
0x61, 0x6c, 0x5f, 0x31, 0x2f, 0x64, 0x65, 0x6e, 0x73, 0x65, 0x5f, 0x31, 
0x2f, 0x4d, 0x61, 0x74, 0x4d, 0x75, 0x6c, 0x00, 0x02, 0x00, 0x00, 0x00, 
0x18, 0x00, 0x00, 0x00, 0x06, 0x00, 0x00, 0x00, 0xde, 0xfe, 0xff, 0xff, 
0x00, 0x00, 0x00, 0x01, 0x10, 0x00, 0x00, 0x00, 0x10, 0x00, 0x00, 0x00, 
0x06, 0x00, 0x00, 0x00, 0x38, 0x00, 0x00, 0x00, 0x64, 0xfe, 0xff, 0xff, 
0x2b, 0x00, 0x00, 0x00, 0x73, 0x65, 0x71, 0x75, 0x65, 0x6e, 0x74, 0x69, 
0x61, 0x6c, 0x5f, 0x31, 0x2f, 0x64, 0x65, 0x6e, 0x73, 0x65, 0x5f, 0x31, 
0x2f, 0x42, 0x69, 0x61, 0x73, 0x41, 0x64, 0x64, 0x2f, 0x52, 0x65, 0x61, 
0x64, 0x56, 0x61, 0x72, 0x69, 0x61, 0x62, 0x6c, 0x65, 0x4f, 0x70, 0x00, 
0x01, 0x00, 0x00, 0x00, 0x18, 0x00, 0x00, 0x00, 0x32, 0xff, 0xff, 0xff, 
0x00, 0x00, 0x00, 0x01, 0x10, 0x00, 0x00, 0x00, 0x10, 0x00, 0x00, 0x00, 
0x05, 0x00, 0x00, 0x00, 0x3c, 0x00, 0x00, 0x00, 0xb8, 0xfe, 0xff, 0xff, 
0x2d, 0x00, 0x00, 0x00, 0x73, 0x65, 0x71, 0x75, 0x65, 0x6e, 0x74, 0x69, 
0x61, 0x6c, 0x5f, 0x31, 0x2f, 0x64, 0x65, 0x6e, 0x73, 0x65, 0x5f, 0x31, 
0x5f, 0x32, 0x2f, 0x42, 0x69, 0x61, 0x73, 0x41, 0x64, 0x64, 0x2f, 0x52, 
0x65, 0x61, 0x64, 0x56, 0x61, 0x72, 0x69, 0x61, 0x62, 0x6c, 0x65, 0x4f, 
0x70, 0x00, 0x00, 0x00, 0x01, 0x00, 0x00, 0x00, 0x0c, 0x00, 0x00, 0x00, 
0x8a, 0xff, 0xff, 0xff, 0x00, 0x00, 0x00, 0x01, 0x10, 0x00, 0x00, 0x00, 
0x10, 0x00, 0x00, 0x00, 0x04, 0x00, 0x00, 0x00, 0x1c, 0x00, 0x00, 0x00, 
0x10, 0xff, 0xff, 0xff, 0x0f, 0x00, 0x00, 0x00, 0x61, 0x72, 0x69, 0x74, 
0x68, 0x2e, 0x63, 0x6f, 0x6e, 0x73, 0x74, 0x61, 0x6e, 0x74, 0x32, 0x00, 
0x01, 0x00, 0x00, 0x00, 0x03, 0x00, 0x00, 0x00, 0xc2, 0xff, 0xff, 0xff, 
0x00, 0x00, 0x00, 0x01, 0x10, 0x00, 0x00, 0x00, 0x10, 0x00, 0x00, 0x00, 
0x03, 0x00, 0x00, 0x00, 0x1c, 0x00, 0x00, 0x00, 0x48, 0xff, 0xff, 0xff, 
0x0f, 0x00, 0x00, 0x00, 0x61, 0x72, 0x69, 0x74, 0x68, 0x2e, 0x63, 0x6f, 
0x6e, 0x73, 0x74, 0x61, 0x6e, 0x74, 0x31, 0x00, 0x02, 0x00, 0x00, 0x00, 
0x0c, 0x00, 0x00, 0x00, 0x18, 0x00, 0x00, 0x00, 0x00, 0x00, 0x16, 0x00, 
0x18, 0x00, 0x14, 0x00, 0x00, 0x00, 0x10, 0x00, 0x0c, 0x00, 0x08, 0x00, 
0x00, 0x00, 0x00, 0x00, 0x00, 0x00, 0x07, 0x00, 0x16, 0x00, 0x00, 0x00, 
0x00, 0x00, 0x00, 0x01, 0x10, 0x00, 0x00, 0x00, 0x10, 0x00, 0x00, 0x00, 
0x02, 0x00, 0x00, 0x00, 0x1c, 0x00, 0x00, 0x00, 0x9c, 0xff, 0xff, 0xff, 
0x0e, 0x00, 0x00, 0x00, 0x61, 0x72, 0x69, 0x74, 0x68, 0x2e, 0x63, 0x6f, 
0x6e, 0x73, 0x74, 0x61, 0x6e, 0x74, 0x00, 0x00, 0x02, 0x00, 0x00, 0x00, 
0x03, 0x00, 0x00, 0x00, 0x0c, 0x00, 0x00, 0x00, 0x00, 0x00, 0x16, 0x00, 
0x1c, 0x00, 0x18, 0x00, 0x00, 0x00, 0x14, 0x00, 0x10, 0x00, 0x0c, 0x00, 
0x00, 0x00, 0x00, 0x00, 0x08, 0x00, 0x07, 0x00, 0x16, 0x00, 0x00, 0x00, 
0x00, 0x00, 0x00, 0x01, 0x14, 0x00, 0x00, 0x00, 0x20, 0x00, 0x00, 0x00, 
0x20, 0x00, 0x00, 0x00, 0x01, 0x00, 0x00, 0x00, 0x3c, 0x00, 0x00, 0x00, 
0x02, 0x00, 0x00, 0x00, 0xff, 0xff, 0xff, 0xff, 0x06, 0x00, 0x00, 0x00, 
0x04, 0x00, 0x04, 0x00, 0x04, 0x00, 0x00, 0x00, 0x1e, 0x00, 0x00, 0x00, 
0x73, 0x65, 0x72, 0x76, 0x69, 0x6e, 0x67, 0x5f, 0x64, 0x65, 0x66, 0x61, 
0x75, 0x6c, 0x74, 0x5f, 0x6b, 0x65, 0x72, 0x61, 0x73, 0x5f, 0x74, 0x65, 
0x6e, 0x73, 0x6f, 0x72, 0x3a, 0x30, 0x00, 0x00, 0x02, 0x00, 0x00, 0x00, 
0x01, 0x00, 0x00, 0x00, 0x06, 0x00, 0x00, 0x00, 0x02, 0x00, 0x00, 0x00, 
0x20, 0x00, 0x00, 0x00, 0x04, 0x00, 0x00, 0x00, 0xf4, 0xff, 0xff, 0xff, 
0x19, 0x00, 0x00, 0x00, 0x00, 0x00, 0x00, 0x19, 0x0c, 0x00, 0x0c, 0x00, 
0x0b, 0x00, 0x00, 0x00, 0x00, 0x00, 0x04, 0x00, 0x0c, 0x00, 0x00, 0x00, 
0x09, 0x00, 0x00, 0x00, 0x00, 0x00, 0x00, 0x09, 
};
const unsigned int model_data_len = 4148;
